3E6CE82F
BE57497D
3E08C2AD
BD689E53
3E738F7C
BC4BACC4
3E7C5723
BE207296
BE45ADC3
3D4056A1
BE8F4889
3E60244A
3E6289DE
3E45D628
BE3014E5
3B28E6E6
3DD58C45
3DFE7FF2
3E1D45A8
BE323B0C
3E8854BD
BE19A808
3E422C54
BCC42474
3DDFA74E
BE191711
3E47EDA2
BD91F620
BD69E6E6
3DA58251
BE580346
3E668092
3E6CFF21
3E61A26B
BE46E386
BE363B17
BE428E17
3E679E1A
3E5A98BC
BDA27A71
3E32573A
3E2020BE
3DBCCB24
3D07065C
BCCA42AF
BEA4763F
BDA5E85A
BE054621
3DA9592D
3DAD8710
BE444C0B
3E6B4F3D
3E4A2E9E
3E3C2A2D
3DB7F00F
BE5F8FE4
3DFEEE96
3E6277E1
BCD7D332
BE786EAC
BDC2BD7F
BE7812EF
BE2A80A6
BD2C2E34
3E3B68B4
3DD59C88
BEF0D0E8
3E4ACF7D
BDD679D4
3E2319A9
BE263791
BDF1AE11
3D6A3DE5
3D0C3B09
3D8DD639
3D6621DE
3DFD5DBB
BE3F2808
BD2574C1
BD3F9414
3E24B2EC
BEA49CE5
3DFADF57
3CCC261A
3E55AB42
3E097EFE
3E6B0975
BE5C39FC
3D053EC5
BE1BAA09
BE981F45
3E822A61
3E73371E
3E414054
BE418A3F
BE6156D8
BE5873FD
3E6DC5E1
3E38E101
BDCAEC06
BEB5CF52
3EAD5B6C
3D2D3A15
BDF12F7E
3E2A77B3
BD4AA477
BE68566C
3E95DD7B
3D992067
3DF19917
3E0063BF
BE8913C7
3DB3BE82
3E06D06B
BE87974F
3E282E2D
3DBA4F5C
BE9C0B05
3E1ABDD9
3D87B7E3
BDC0BE9D
BE92F2A6
3DEAE4C3
3DD66388
3E502DD9
3E14D103
3E5E6771
BD30D6E4
3DD2B9DA
BE6C0822
BE847629
BE602292
BE2C2B9E
3DBD3E73
3E44997A
3E2382CC
BEC6B94A
3E2B2746
3E297A5D
3E429BE9
BD056D08
3DD57ED9
3D8AB8C1
3DEECF5A
BE355035
3E15443C
3E1E3C57
BEEDB5D7
3E1FD362
BDD730C2
BDCD50E0
BE51302B
3E1CBF0E
3C955C50
3E3B12F6
3DCC5A82
BE1FDAE2
BE2FADD9
3D6004CD
3E5DA3FC
BD9DB19C
3DC710C5
3D41377F
BE97791E
3D146C65
BDC00791
3E36B9D7
BEA46ADB
3E198640
BE032813
BDEECF21
BE0C766C
3DEDF5D0
BBA7F9E3
BDA21182
BD386AB6
BDA1BA60
3E92038C
BD7D9FA4
3E71CF86
BE8F2E92
BE45CF31
3D9E51EB
3E0F4D03
3E37C05E
3D916E55
BEAE7D6C
BDC7864D
3E26E67C
3E250903
BE12297D
BDED604A
3E35206B
BE0FF435
3C8D144A
3E04F4D6
3E5A8672
BD86DD3F
3DB5F908
BE896A51
3DE45168
3DC19CF9
3E9DB9CC
BD66D556
BD867B36
BDE5BC13
BE6BFD72
3E6A394B
BAC2D777
BD9A1989
3EA112D8
BE7F59B6
3E8DA652
BCC36CA9
BE01A84B
BE46C60B
BCF54DD3
BCB571A9
BE11196A
BD18A9D8
BE226C66
3EB96F46
BE5D6A25
3E34224A
3DEC01EF
BDF90243
BD7D500C
3E7DFD0D
BDEB7496
3CFE8D1E
BD880860
BE321E0F
3E20CC5D
BE458574
3E9F6348
BE329804
3DCB9A36
BCF3B53B
BE0529EE
3E8988DA
3E10B895
3E5B1125
3BA04C24
BEA028E7
BE09DBE4
3E216E2B
3E6C6728
BEA934D1
3E3C469A
BE1FDDD5
BD919F73
BE373BE6
3E1D4FD2
BE17A691
3E7B6727
BD8DCC62
3E664769
BD9715AF
BDBF4B33
BD93E48B
BE00EA21
BD953E99
3DFF471E
BE052972
3E69632A
BD719AE8
BE7E2489
BE0A3829
BDF90583
3E64ADE5
3E57AF0E
3E4FF251
3E2E0290
BDA2C820
BDF9BE23
BE5FADB4
BE42EDEC
3E056595
3E467EAD
BD8E0DDF
BE639D2F
BE5C7912
BE1C2C55
3E7AABB0
3DB54340
3E3985C0
BE40C4CD
BE0BE732
BCFAD7C0
3DB75352
3A92771B
BE166126
3E67AA13
3E8C0A70
BE52E7E4
3D462EAE
BE2F92BE
BE3E1CF5
3C17FA0E
BE58BD4D
BEA60140
3E3B9879
BE5247ED
3E23466C
3E2C95F3
3E1260B8
BE5C18A0
BE4F9494
3E10264A
3E4AC7FB
BE54069D
3E65ED5E
BD1ED8EC
3E225CD9
3D9708A5
3E510BDD
3DCC6FDB
BE247B7A
BDD2C086
3C2304D8
BDFA73B3
3EAE6750
3E5D20DC
BDBBE189
3DA67E12
BE49FB87
3E9EA7E6
BE34E50B
BD7A87C0
BE90C67B
3E285F66
3E2A1C8B
BDF5A8FB
BDDE3426
BE816491
3E385541
3E4C47EE
3DD6A5D0
BDE472C9
BCF73368
3E091F2E
BE76AA7B
3E06839C
3E1D71D3
BEBB0D41
3E0E86A5
BDED87CC
3E0D659D
3E12C4AA
3D99E8F4
BE1AD147
BE9BE381
3E3192BF
BE354DF5
3E64F280
BE0FEF02
3DF39C3A
BDEBC158
BD59F68D
3E3B5B53
BE2CCF2C
3D8AFD53
3E93F94B
BD2905DA
BDA50ED7
BD63689B
3DB13B49
3C931A84
BE53C47B
BDB01432
3DE02E73
BE4AA968
BD747AED
3E824CE4
BCFD65AF
3C8633CF
BE87123B
3E93950B
BDB1DCD6
3E4FA059
BE401092
BE51E67B
3E022821
3E051255
BE28A878
BE420A09
BEABAD7E
3E569B6B
3BAD3A2E
3E488AF7
3E4F73D8
BEBAB269
BC806DAC
3B43EFD0
BE61BC74
3E4B1E48
3DDD88A8
3E19A555
3E4B37C9
3D7EFAD7
3E2EB22A
3D198896
BE2A4913
3E3A6803
BE3A3E46
3E478D82
3DD74B3B
3DCBD478
BE52257E
BDFC2CEB
BE279019
BE79637A
BD041D76
BD8E6431
3E6B706F
BDDFF42B
BD9A997E
3E5AFFDA
3E5912F5
3E6E40BE
3E936E3C
BE29A906
BDAE8598
BCBDF099
3D3A3251
3E412B86
3E294308
3E0B597F
3C78CF8A
BCD2734F
BDC4E775
BE902DB3
BE03B448
BE007240
3E36FB25
3E538A7C
3E120FBF
BE13588A
3E5DC721
3E0E2E58
BCCC7C7F
BE29D0C8
3E523242
3E4A6D0A
BE562762
3D7F30B0
BE7E18A3
3E5DEB8D
3D346183
3E312767
3E8EEE96
BE8CF36E
3D009FEB
3AA6FA00
BDF17FBF
3DBAB819
BE06BE6A
3E949621
3CFA8437
3E694910
3E30B483
BE1275AD
BE373C35
BE2A25F3
3DAC98E9
3E2760DA
3E419D93
BE1036E0
BDF8BDF1
BE5EA641
3E44DA21
BE34B6F4
BCD2D0E4
3E612EAD
BE44E5A0
3E713D2F
3BF5891D
BDE79A89
BD9723CD
3CE173E3
3E81050A
BDB0846F
3E820B41
BCD4819B
3C6066FE
3D7C04C6
3D47C708
BD04987C
BE74D50C
3C980EA3
BEA8FD77
3E87D8F8
BE2DCD58
BE2D6540
3E3E7277
3E4A8097
BE71045B
3D9F7FF3
BC1A8A6E
3E3EB265

