3DBCEFAE
BD272622
3DE4D18F
3DD889FB
BDB3ED51
BD54D0FE
B9EABE9C
3BF3FAE1
3E017865
3D9D3D7D
3D95369C
3D8D2EBF
3E33C5A3
3C9CFC08
3CA0A946
3CFE5417
BC6F40FA
3D30C62C
3D5AE4B1
BD27CCB4
3DB41C28
BC3B1596
3D166D0F
3D8425F1
3D93E79D
3D8CD0D0
BD208D6B
3DFA7CFE
BDA95599
BCB3A03E
3D8632A6
3D844C4D
3E3D9F96
3CEF3CD0
3D8E57AA
BC79B219
BCCFE11B
3D96309F
BD9A393A
3CF8DCE2
3DE6B377
BC90B4F4
3E141944
39B1C9C8
BDB5DC40
3DD7C141
3DC7121E
3DA8BF13
3E2188E7
3DD3567E

